// Kernel weights for Vivado BRAM initialization
// Input channels: 4
// Output channels: 4
// Kernel size: 3x3
// Bits per weight: 6
// Total bits per word: 24
// Data format: output_ch0[5:0], output_ch1[11:6], ...
// Address format: in_channel * 9 + position

@000 00003F  // In_ch0 pos(0,0) weights: [-1, 0, 0, 0]
@001 03F03F  // In_ch0 pos(0,1) weights: [-1, 0, -1, 0]
@002 00003F  // In_ch0 pos(0,2) weights: [-1, 0, 0, 0]
@003 03F03F  // In_ch0 pos(1,0) weights: [-1, 0, -1, 0]
@004 045048  // In_ch0 pos(1,1) weights: [8, 1, 5, 1]
@005 03F03F  // In_ch0 pos(1,2) weights: [-1, 0, -1, 0]
@006 00003F  // In_ch0 pos(2,0) weights: [-1, 0, 0, 0]
@007 03F03F  // In_ch0 pos(2,1) weights: [-1, 0, -1, 0]
@008 00003F  // In_ch0 pos(2,2) weights: [-1, 0, 0, 0]
@009 03FFFF  // In_ch1 pos(0,0) weights: [-1, -1, -1, 0]
@00A 03FF80  // In_ch1 pos(0,1) weights: [0, -2, -1, 0]
@00B 03FFC1  // In_ch1 pos(0,2) weights: [1, -1, -1, 0]
@00C 03F03E  // In_ch1 pos(1,0) weights: [-2, 0, -1, 0]
@00D 048000  // In_ch1 pos(1,1) weights: [0, 0, 8, 1]
@00E 03F002  // In_ch1 pos(1,2) weights: [2, 0, -1, 0]
@00F 03F07F  // In_ch1 pos(2,0) weights: [-1, 1, -1, 0]
@010 03F080  // In_ch1 pos(2,1) weights: [0, 2, -1, 0]
@011 03F041  // In_ch1 pos(2,2) weights: [1, 1, -1, 0]
@012 FFF000  // In_ch2 pos(0,0) weights: [0, 0, -1, -1]
@013 F8003F  // In_ch2 pos(0,1) weights: [-1, 0, 0, -2]
@014 FC1000  // In_ch2 pos(0,2) weights: [0, 0, 1, -1]
@015 03E03F  // In_ch2 pos(1,0) weights: [-1, 0, -2, 0]
@016 000045  // In_ch2 pos(1,1) weights: [5, 1, 0, 0]
@017 00203F  // In_ch2 pos(1,2) weights: [-1, 0, 2, 0]
@018 07F000  // In_ch2 pos(2,0) weights: [0, 0, -1, 1]
@019 08003F  // In_ch2 pos(2,1) weights: [-1, 0, 0, 2]
@01A 041000  // In_ch2 pos(2,2) weights: [0, 0, 1, 1]
@01B 00003F  // In_ch3 pos(0,0) weights: [-1, 0, 0, 0]
@01C 03F03F  // In_ch3 pos(0,1) weights: [-1, 0, -1, 0]
@01D 00003F  // In_ch3 pos(0,2) weights: [-1, 0, 0, 0]
@01E 03F03F  // In_ch3 pos(1,0) weights: [-1, 0, -1, 0]
@01F 045048  // In_ch3 pos(1,1) weights: [8, 1, 5, 1]
@020 03F03F  // In_ch3 pos(1,2) weights: [-1, 0, -1, 0]
@021 00003F  // In_ch3 pos(2,0) weights: [-1, 0, 0, 0]
@022 03F03F  // In_ch3 pos(2,1) weights: [-1, 0, -1, 0]
@023 00003F  // In_ch3 pos(2,2) weights: [-1, 0, 0, 0]
