// Kernel weights for Vivado BRAM initialization
// Input channels: 2
// Output channels: 4
// Kernel size: 3x3
// Bits per weight: 6
// Total bits per word: 24
// Data format: output_ch0[5:0], output_ch1[11:6], ...
// Address format: in_channel * 9 + position

@000 000FC0  // In_ch0 pos(0,0) weights: [0, -1, 0, 0]
@001 FC0FC0  // In_ch0 pos(0,1) weights: [0, -1, 0, -1]
@002 000FC0  // In_ch0 pos(0,2) weights: [0, -1, 0, 0]
@003 FC0FC0  // In_ch0 pos(1,0) weights: [0, -1, 0, -1]
@004 141201  // In_ch0 pos(1,1) weights: [1, 8, 1, 5]
@005 FC0FC0  // In_ch0 pos(1,2) weights: [0, -1, 0, -1]
@006 000FC0  // In_ch0 pos(2,0) weights: [0, -1, 0, 0]
@007 FC0FC0  // In_ch0 pos(2,1) weights: [0, -1, 0, -1]
@008 000FC0  // In_ch0 pos(2,2) weights: [0, -1, 0, 0]
@009 FC0FFF  // In_ch1 pos(0,0) weights: [-1, -1, 0, -1]
@00A FC0F80  // In_ch1 pos(0,1) weights: [0, -2, 0, -1]
@00B FC0FC1  // In_ch1 pos(0,2) weights: [1, -1, 0, -1]
@00C FC003E  // In_ch1 pos(1,0) weights: [-2, 0, 0, -1]
@00D 201000  // In_ch1 pos(1,1) weights: [0, 0, 1, 8]
@00E FC0002  // In_ch1 pos(1,2) weights: [2, 0, 0, -1]
@00F FC007F  // In_ch1 pos(2,0) weights: [-1, 1, 0, -1]
@010 FC0080  // In_ch1 pos(2,1) weights: [0, 2, 0, -1]
@011 FC0041  // In_ch1 pos(2,2) weights: [1, 1, 0, -1]
